000110110101011100
111001000101001011
111100110001000111
000010110111001010
111111010110010100
000101000000101001
111100111111000111
000000100111011001
000001010011101100
000101000100100101
000010010000011011
111100110010011100
111011101010111001
111111110000111001
000111011100011101
000001101111101010
000000111001101101
111101101111000010
000000000010001000
111100111001001010
111010010100100010
000010101001101001
000101011001001111
111010001011010011
000100011010001110
111010110001000011
001010001010101101
111111011000001101
111111100001110100
000100011011011011
