000000001001111100
111101110000001011
111110001000100010
000000000000000011
111111011011110000
111110001000010110
111110001101101010
000000000100111110
000000010001111011
000000001001001000
000000010100000000
111111010001010010
111110010100001011
111110101011100010
000000011111000010
111110101101011111
000000000110111111
000000000101111111
000000101011101101
000000001001010110
000010000010010111
111110011110101110
000000001010111100
111111010010000101
111110100011111001
111110110000000101
111111000111011110
111110100011000010
111110010000000011
000000000010011100
000000010100111111
000001000010101000
111111010010111010
111110001001010001
000000110001000100
000000011101010010
111111110010000101
111111011110100000
000000001010000101
111100011101011101
000001000000001010
000000101100010000
111111111001011101
111111011001110010
111111100111011011
111111101100111011
000000101011110100
111110100111010011
000000101100000110
000000001011111011
000001010010110011
000000110010100101
000000110000100110
111101110000000100
111111010111001011
111110110111010011
000000100101001100
000000111111010011
111111110100100110
000000001110111001
111111001101100100
111110100000110111
000000110100011110
111111011110100000
000000100111100000
000000001000001110
111111010111000000
111111111101011110
000000111011010000
000000000111011011
111111001010000101
111101111011011001
111110001111111111
000000000001010001
111101111110100011
000000100001100110
111101110010110110
111110010011001100
000000101001010100
111110111111111000
000000001101111001
000000001001010111
000000001110000101
111111000110111101
111111111000011100
000000000011101000
111111111100010010
000010000010000101
111111010100111010
111111011011010100
111111010000101010
000000111010000100
111110011110100001
111111001111011100
111111001011111100
000001001010001111
111101111000010000
111111110100010011
000000010110000001
111110010000000001
111111110100110100
000000101111011101
000000011011000111
111111110011100100
111111101010111101
111111110110111011
111111111100001100
111111011001100101
000000001000011101
111111001001000010
000100000011000110
111110011011000000
000000010001101101
000000110101000100
111111100101110100
111111101001101110
000000010110101011
000000110010100001
111111001001100001
111111100110101101
111111111011011110
000000111110111111
000000001011001010
111110010111000111
111101101010011011
111110001010101010
111111101110011000
111011101111011101
111101111101100110
000000000011001100
000000010001110101
000000011000111101
111111111100110001
111110110011110101
000000001100001011
111110110111001101
000000010110010110
111111111011010001
000000010101110001
000000011101011001
111111011010010101
111111100001011011
111111010100110001
000010010111010110
000001000010000110
111111111100110110
000000011100100111
111111011001101100
111111100101010110
111101101110001100
111111010011011010
111111111111011010
111110011000011101
000000111011110011
111111001110100000
111111010110101011
111110001000000001
111111101111101011
111111001000001100
111111100111001011
000000000000000111
111111000101000100
111111110101001001
111111111010000100
000000000111111100
000000111100110000
111111001001000111
000000000101010101
000000100011000101
111111011110001001
000000110100110011
111111111000100110
111111110110001100
111110110001001010
111111111010101011
111111111000010111
000000001111000010
000001010010101011
000000000000101010
000001001001110101
000000010011101110
000010110000000100
111111010011010001
111101111100000001
000000100101010111
111110110010111100
000000000011101110
111101000011110010
111111011001111011
000000000101111100
111111011100010101
111111010100100111
111111010010101010
111111101100101110
000000010010011110
111111100101111011
000000011101010101
000000001001111111
111111000010001000
000000011101100110
000000100111110010
000000001111010010
111111011111010101
000000101000110001
111110000010000010
000000000101001011
000000011001100001
111110110111011000
000000001100001110
111111001010101011
000000110011100100
111111111100001101
000000001111010111
111111110010100001
000001010011111011
000000100111101110
111111011101000010
000000000100001001
000000010100010101
111111111111111010
000000001110101111
000000000011000101
111111100101000011
000000101100010010
000001000000000111
000000000100111011
000000000011010011
000000001000100000
111111100010111101
000000001011111101
000001000101011000
000000011010010100
111111011100111110
000010001010101000
000000110010010001
111111101101011011
000001010110010010
000001101001101001
111110011101110100
111111011010000100
111110000110010110
111110111110010000
000000010001101001
111111001000011011
111111101110101010
111111010001000010
111101101110101011
000000000001111100
111110111000100100
111101101011111001
111110010100110100
111110100001111001
111111000010111101
111110001011010001
000000000111110011
111110101010110100
000000010010100010
111111111110101010
000000101000101011
111101110101110010
000000111111001111
000000000100001000
111111110110001001
111101000110110110
000000011101110101
111111010100010101
111111110000000010
111101101000010010
111111111101000001
111110010100100111
111110000111000100
111111010000001101
000000011000101110
111111101100111001
000001011001110001
000001000110111010
000000000010100000
000000001000010100
000000001001000101
000000011010011010
000000011111111011
111111100100101100
111111111110011110
111101111000010110
000000101100011001
111111100111101000
000001111100100111
000000010010111100
111101111100001000
000001010110111111
000000101111001101
111111100001100110
000000001100010000
000000010111100010
000000110011000100
111101011111010101
000001010100000101
000000010000111101
000000001101001000
111111010100011000
